e </w>
t h
s </w>
t </w>
d </w>
r </w>
a n
y </w>
o </w>
o u
n </w>
i n
l </w>
e r
th e</w>
an d</w>
h a
e r</w>
e a
e n
i s</w>
f </w>
l l</w>
o r
i </w>
a </w>
y ou
t o</w>
o n
n o
a r
e s
th </w>
o m
w i
o f</w>
g </w>
i n</w>
v e</w>
t i
a t</w>
you </w>
e s</w>
e d</w>
th e
u s</w>
h </w>
in g</w>
m </w>
o n</w>
w </w>
k </w>
l o
h i
m y</w>
l i
i t</w>
m e</w>
o r</w>
l e
s t
m a
th at</w>
l a
s t</w>
an </w>
e n</w>
c a
no t</w>
r i
c e</w>
h e</w>
r a
s i
l d</w>
a s</w>
w h
s e</w>
c h</w>
er e</w>
d i
u r
s e
r o
r e
b u
b e
wi th</w>
g h
th ou
f or</w>
u n
b e</w>
bu t</w>
a y</w>
th is</w>
h is</w>
k e</w>
l e</w>
c om
h o
t a
ha ve</w>
you r</w>
f a
t er</w>
le t</w>
w ha
w e
r u
wha t</w>
thou </w>
g o
h ea
l y</w>
s o</w>
gh t</w>
hi m</w>
e t</w>
wi ll</w>
s p
d o</w>
s ha
a t
d e
f or
th er</w>
ou ld</w>
r om
ou r</w>
p </w>
s a
v i
no w</w>
d s</w>
m i
r ea
t s</w>
d o
ar e</w>
s h
a g
or d</w>
f i
o d</w>
q u
a ll</w>
s u
on e</w>
a r</w>
m o
l l
sha ll</w>
o l
n o</w>
w e</w>
es s</w>
b y</w>
h er</w>
ea r</w>
an t
e x
m or
m u
c k</w>
th y</w>
c on
m e
i f</w>
com e</w>
w hi
es t</w>
m ar
i r</w>
n e
en t</w>
the e</w>
l ord</w>
er s</w>
a l
s c
p o
w n</w>
d e</w>
t y</w>
c h
a m</w>
ant on
b o
t o
we ll</w>
w or
ou n
ca es
v er
caes ar</w>
f rom
from </w>
m an</w>
n i
ea r
go od</w>
g i
d y</w>
ti on</w>
ho w</w>
c i
o p
ha m
se l
th ere</w>
h ere</w>
en ter</w>
e l
lo ve</w>
p a
mor e</w>
whi ch</w>
v er</w>
in e</w>
s he</w>
p ar
t e
en ce</w>
w as</w>
g o</w>
the y</w>
t e</w>
ham let</w>
m on
s si
s om
b a
w ould</w>
ma c
b le</w>
anton y</w>
u p
the n</w>
wh en</w>
g e</w>
ou t</w>
g u
di d</w>
l ea
d es
c e
en d</w>
en t
d u
sel f</w>
k ing</w>
t ru
i r
d er</w>
ur e</w>
in g
g h</w>
p p
ou s</w>
ha th</w>
d ea
the ir</w>
p u
i s
sh ould</w>
the m</w>
up on</w>
hea r
s ay</w>
o f
k now</w>
an t</w>
ha r
in d</w>
t t
f e
th an</w>
ca ssi
lo o
fi r
f ri
ver y</w>
li ke</w>
v en</w>
c u
p ro
g ra
mu st</w>
mo st</w>
t us</w>
mar k</w>
p la
v es</w>
m p
ma y</w>
sp ea
ou r
wh ere</w>
r y</w>
th ing</w>
ma ke</w>
mac be
macbe th</w>
f e</w>
j u
w ay</w>
som e</w>
b ru
an i
f u
gi ve</w>
y et</w>
ni ght</w>
for e</w>
su ch</w>
s en
w s</w>
ll o</w>
a l</w>
bru tus</w>
in k</w>
o the
othe llo</w>
se e</w>
t is</w>
e e
si r</w>
p i
p r
a c
i d</w>
m en</w>
o b
s w
p or
e y
wh y</w>
th es
om </w>
er e
spea k</w>
s h</w>
ha d</w>
lo w</w>
la dy</w>
o se</w>
ti o</w>
c an</w>
k s</w>
c le
an y</w>
ag o</w>
p er
i ago</w>
s er
t ed</w>
p e
p ra
w ere</w>
cle op
cleop at
cleopat r
cleopatr a</w>
s ti
t ter</w>
h or
o c
w ar
ta ke</w>
wh o</w>
fir st</w>
ag a
i us</w>
ti me</w>
n a
m b
un t</w>
h on
ing s</w>
v en
h e
rom e
s on</w>
rome o</w>
to o</w>
w a
ex e
th ink</w>
st r
v ed</w>
an ce</w>
oun d</w>
u p</w>
d er
thes e</w>
o ther</w>
s s
m ine</w>
loo k</w>
mu ch</w>
a b
m er
t ri
exe unt</w>
on g</w>
l u
s s</w>
te ll</w>
d a
d ay</w>
no r</w>
g ent
ro w</w>
oc ta
octa vi
h er
v o
hea r</w>
g rea
f o
n ess</w>
g a
c an
g er</w>
in ce</w>
dea th</w>
ex it</w>
hear t</w>
ne ver</w>
c har
y s</w>
a f
por ti
s o
t ur
c o
at e</w>
l t</w>
l d
h an
s ed</w>
li a</w>
porti a</w>
fa ther</w>
t en
e en</w>
wi th
u se</w>
t es</w>
s we
r ing</w>
on s</w>
t ch</w>
de mon
sc en
h u
ear s</w>
des demon
desdemon a</w>
qu een</w>
k no
cassi us</w>
cassi o</w>
scen e</w>
la u
b an
m ent</w>
se e
do th</w>
ar t</w>
m en
e p</w>
r ou
p ri
ur se</w>
ar b
b lo
b l
octavi us</w>
c k
c oun
d one</w>
f ear</w>
t un
pra y</w>
ma de</w>
a way</w>
s le
grea t</w>
b rea
de ed</w>
gu e</w>
aga in</w>
c </w>
hor a
hora tio</w>
hea ven</w>
t er
g e
i ti
st er</w>
m s</w>
m es
ey es</w>
fa ir</w>
h and</w>
t w
i ce</w>
ani o</w>
d ed</w>
re e</w>
h el
ere fore</w>
f ol
p re
t ra
com es</w>
a pp
ma d
par t</w>
c t</w>
i l</w>
p s</w>
h ou
o wn</w>
b ra
st and</w>
lo ck</w>
d om
s ea
en ob
enob arb
on ius</w>
tru e</w>
f f</w>
be fore</w>
enobarb us</w>
di us</w>
wor ld</w>
swe et</w>
w om
lea ve</w>
fu l</w>
ho ld</w>
li fe</w>
th us</w>
dea d</w>
can not</w>
m ur
en ds</w>
s ure</w>
l or
d ing</w>
ju li
c hi
i ll</w>
y self</w>
p ur
n urse</w>
no thing</w>
in s</w>
t u
do wn</w>
dom iti
domiti us</w>
p lea
you r
sa l
c lo
bo th</w>
qu i
ou l</w>
ll s</w>
s es</w>
i o</w>
k es</w>
c ould</w>
e f</w>
d ra
th erefore</w>
n at
for tun
j e
s ol
f l
no ble</w>
l s</w>
hou se</w>
with in</w>
p ol
s an
r an
pr es
ba ss
bass anio</w>
juli et</w>
r es
ha st</w>
s hi
f t</w>
w o
e mi
blo od</w>
i t
ag e</w>
ti ll</w>
be en</w>
b ear</w>
go d</w>
pol onius</w>
n ing</w>
thou gh</w>
j o
tw o</w>
ca ll</w>
l ess</w>
e ver</w>
e very</w>
a d
du ff</w>
wi fe</w>
l y
c our
mac duff</w>
n ay</w>
f ind</w>
v ing</w>
d ear</w>
t y
g er
sh y
shy lock</w>
in to</w>
li ght</w>
o ld</w>
war d</w>
th an
t ing</w>
li ve</w>
k ee
in st</w>
w er</w>
g one</w>
tur n</w>
b ed</w>
b ea
d r
b ro
emi lia</w>
l es</w>
wh ose</w>
m yself</w>
e ven</w>
mi a</w>
c lau
an o</w>
p t</w>
her mia</w>
clau dius</w>
fri ends</w>
mad am</w>
b i
se con
secon d</w>
ser v
si de</w>
gent le
b en
char mi
charmi an</w>
mes sen
s how</w>
be ing</w>
c ol
ar d</w>
d en
r e</w>
f ar
anton io</w>
ca pu
in deed</w>
p e</w>
w r
na me</w>
i se</w>
p ea
hea d</w>
you n
ly san
lysan der</w>
gra ti
fo o
com m
c ho
g ro
t in
b al
s or
m any</w>
po or</w>
pu t</w>
grati ano</w>
d an
an other</w>
b es
pla y</w>
st ra
fri end</w>
of f
p om
th ose</w>
gh ts</w>
e l</w>
an ge</w>
l and</w>
j es
capu let</w>
de me
g et</w>
t ly</w>
youn g</w>
deme tri
demetri us</w>
m es</w>
sti ll</w>
be tter</w>
th ings</w>
an s</w>
w ord</w>
fa i
gu i
s oul</w>
sol di
c or
sle ep</w>
c ha
mi ght</w>
lo t</w>
pom pe
messen ger</w>
c y</w>
wom an</w>
kee p</w>
thou ght</w>
en g
b est</w>
far e
fare well</w>
st o
fri ar</w>
la in</w>
la er
laer tes</w>
ta in</w>
st ay</w>
hi m
him self</w>
b ring</w>
b id</w>
ri ed</w>
fol low</w>
c ro
pla ce</w>
ey e</w>
l ed</w>
d ou
we l
c a</w>
ne w</w>
aga inst</w>
of f</w>
s in
an sw
c es</w>
ce i
ma ster</w>
x </w>
pompe y</w>
se t</w>
t on
ban qu
ca use</w>
li es</w>
d ar
i ther</w>
g re
du ke</w>
con f
fortun e</w>
hon our</w>
c r
b on
on ce</w>
ci ti
el se</w>
nat ure</w>
for th</w>
k ill</w>
la ck</w>
f ur
t or
w ea
fa ce</w>
citi z
m in
som e
tt le</w>
th ree</w>
b </w>
c tion</w>
la un
laun ce
launce lot</w>
sa me</w>
ab out</w>
ll us</w>
in t</w>
n one</w>
f el
sp o
do es</w>
si on</w>
sw ord</w>
de vi
do st</w>
st er
li e</w>
g ri
wor ds</w>
s ing</w>
gh ter</w>
en z
ac t</w>
s ho
d ge</w>
banqu o</w>
lor enz
lorenz o</w>
our s</w>
i i</w>
h o</w>
st a
ba ck</w>
h ence</w>
tru de</w>
li e
r est</w>
d rea
answ er</w>
sp i
ger trude</w>
mer cu
mercu tio</w>
ear th</w>
m an
di e</w>
a u
b er
ir d</w>
mb er</w>
ben vo
benvo li
benvoli o</w>
fa ll</w>
st e</w>
gent le</w>
mo ther</w>
gra ce</w>
z </w>
n er
la y</w>
hu s
ma tter</w>
whi le</w>
c ou
wel come</w>
en a</w>
le pi
lepi d
lepid us</w>
at ten
o th
l ong</w>
y ing</w>
ea ch</w>
serv ant</w>
c ar
s k
bo tt
bott om</w>
d es</w>
com p
ee ch</w>
t en</w>
pea ce</w>
la ur
b or
hon est</w>
me et</w>
c ed</w>
da u
ty bal
an g
li ttle</w>
ou gh</w>
se en</w>
sa id</w>
ca me</w>
w at
hear d</w>
hel ena</w>
je w</w>
citiz en</w>
tybal t</w>
ir e</w>
be g
rea son</w>
m ind</w>
der i
op he
laur ence</w>
o k</w>
c er
ton gue</w>
a side</w>
i m
fai th</w>
ro sen
rosen cr
rosencr ant
rosencrant z</w>
ophe lia</w>
ven ice</w>
g en
y er</w>
s ent</w>
mar ry</w>
wi thou
withou t</w>
l ing</w>
l en
ma kes</w>
t or</w>
g r
n e</w>
re me
pr ince</w>
s y</w>
rou gh</w>
po wer</w>
sp ir
li us</w>
clo wn</w>
e g
st ru
di s
i ght</w>
d g
f ly</w>
dra w</w>
d ro
st ar
b ri
dau ghter</w>
le x
rom e</w>
th ine</w>
ti mes</w>
fu ll</w>
b and</w>
lo w
sel ves</w>
a s
c ur
is h</w>
c l
d ly</w>
be t
n ed</w>
ci ous</w>
e ly</w>
af ter</w>
a th
ma l
ne ws</w>
la st</w>
st ate</w>
hel p</w>
h our</w>
ro deri
roderi go</w>
vi r
te mp
di es</w>
st re
or s</w>
en ough</w>
han ds</w>
spir it</w>
