a
b
c
d
e
f
g
h
i
j
k
l
m
n
o
p
r
s
t
u
v
w
x
y
z
ab
ac
ad
af
ag
al
an
ar
as
at
au
ba
be
bi
bl
bo
bu
ca
ce
ch
ci
ck
cl
co
cr
cu
da
de
dg
di
do
dr
du
ea
ee
eg
el
en
er
es
ex
ey
fa
fe
fi
fl
fo
fu
ga
ge
gh
gi
go
gr
gu
ha
he
hi
ho
hu
im
in
ir
is
it
je
jo
ju
la
ld
le
li
ll
lo
lu
ly
ma
mb
me
mi
mo
mp
mu
na
ne
ni
no
ob
oc
of
ol
om
on
op
or
ou
pa
pe
pi
po
pp
pr
pu
qu
ra
re
ri
ro
ru
sa
sc
se
sh
si
sk
so
sp
ss
st
su
sw
ta
te
th
ti
to
tt
tu
tw
ty
un
up
ur
vi
vo
wa
we
wh
wi
wo
wr
aga
ang
ani
ant
app
arb
ath
bal
ban
bea
beg
ben
ber
bes
bet
blo
bon
bor
bra
bri
bro
bru
can
car
cei
cer
cha
chi
cho
cle
clo
col
com
con
cor
cou
cro
cur
dan
dar
dau
dea
den
der
des
dis
dom
dou
dra
dro
ear
emi
eng
ent
enz
ere
exe
fai
far
fel
fir
fol
foo
for
fri
fur
gen
ger
gra
gre
gri
gro
gui
ham
han
har
hea
hel
her
hon
hor
hou
hus
ing
iti
jes
kee
kno
lau
lea
len
lex
lie
loo
lor
low
mac
mad
mal
man
mar
men
mer
mes
min
mon
mor
mur
nat
ner
off
oth
oun
our
par
pea
per
pla
pol
pom
por
pra
pre
pri
pro
pur
qui
ran
rea
res
rom
rou
sal
san
sea
see
sel
sen
ser
sha
shi
sho
sin
sle
sol
som
sor
spi
spo
ssi
sta
sti
sto
str
swe
ten
ter
the
tin
ton
tor
tra
tri
tru
tun
tur
ven
ver
vir
war
wat
wea
wel
wha
whi
wom
wor
you
</w>
answ
brea
caes
capu
char
citi
clau
comm
comp
conf
coun
cour
deme
deri
devi
drea
gent
grea
hear
juli
laur
ophe
plea
pres
reme
rome
scen
serv
some
spea
spir
star
ster
stra
stre
stru
temp
than
thes
thou
with
youn
your
a</w>
anton
atten
b</w>
banqu
c</w>
citiz
d</w>
demon
e</w>
f</w>
g</w>
grati
h</w>
i</w>
k</w>
l</w>
m</w>
n</w>
o</w>
p</w>
pompe
porti
r</w>
s</w>
soldi
t</w>
tybal
w</w>
x</w>
y</w>
z</w>
al</w>
am</w>
an</w>
ar</w>
as</w>
at</w>
ay</w>
be</w>
by</w>
ca</w>
ce</w>
ch</w>
ck</w>
ct</w>
cy</w>
de</w>
do</w>
ds</w>
dy</w>
ed</w>
ef</w>
el</w>
en</w>
ep</w>
er</w>
es</w>
et</w>
fe</w>
ff</w>
fortun
ft</w>
ge</w>
gentle
gh</w>
go</w>
he</w>
ho</w>
id</w>
if</w>
ii</w>
il</w>
in</w>
io</w>
ir</w>
is</w>
it</w>
ke</w>
ks</w>
ld</w>
le</w>
ll</w>
ls</w>
lt</w>
ly</w>
me</w>
messen
ms</w>
my</w>
ne</w>
no</w>
octavi
od</w>
of</w>
ok</w>
om</w>
on</w>
or</w>
pe</w>
ps</w>
pt</w>
re</w>
ry</w>
se</w>
sh</w>
so</w>
ss</w>
st</w>
sy</w>
te</w>
th</w>
to</w>
ts</w>
ty</w>
up</w>
us</w>
ve</w>
we</w>
wn</w>
ws</w>
ys</w>
act</w>
age</w>
ago</w>
all</w>
and</w>
ano</w>
ans</w>
ant</w>
any</w>
ard</w>
are</w>
art</w>
ate</w>
bed</w>
bid</w>
ble</w>
but</w>
can</w>
ced</w>
ces</w>
day</w>
ded</w>
der</w>
des</w>
dge</w>
did</w>
die</w>
dly</w>
ear</w>
een</w>
ely</w>
ena</w>
end</w>
enobarb
ent</w>
ere</w>
ers</w>
ess</w>
est</w>
eye</w>
fly</w>
for</w>
ful</w>
ger</w>
get</w>
ght</w>
god</w>
gue</w>
had</w>
her</w>
him</w>
his</w>
how</w>
ice</w>
ill</w>
ind</w>
ine</w>
ing</w>
ink</w>
ins</w>
int</w>
ird</w>
ire</w>
ise</w>
ish</w>
ius</w>
jew</w>
kes</w>
lay</w>
led</w>
les</w>
let</w>
lia</w>
lie</w>
llo</w>
lls</w>
lot</w>
low</w>
man</w>
may</w>
men</w>
mes</w>
mia</w>
nay</w>
ned</w>
new</w>
nor</w>
not</w>
now</w>
off</w>
old</w>
one</w>
ong</w>
ons</w>
ord</w>
ors</w>
ose</w>
oul</w>
our</w>
ous</w>
out</w>
own</w>
put</w>
ree</w>
row</w>
say</w>
sed</w>
see</w>
ses</w>
set</w>
she</w>
sir</w>
son</w>
ste</w>
tch</w>
ted</w>
ten</w>
ter</w>
tes</w>
the</w>
thy</w>
tio</w>
tis</w>
tly</w>
too</w>
tor</w>
tus</w>
two</w>
unt</w>
ure</w>
use</w>
ved</w>
ven</w>
ver</w>
ves</w>
was</w>
way</w>
wer</w>
who</w>
why</w>
yer</w>
yet</w>
you</w>
ance</w>
ange</w>
anio</w>
away</w>
back</w>
band</w>
bear</w>
been</w>
best</w>
both</w>
call</w>
came</w>
come</w>
dead</w>
dear</w>
deed</w>
dies</w>
ding</w>
dius</w>
does</w>
done</w>
dost</w>
doth</w>
down</w>
draw</w>
duff</w>
duke</w>
each</w>
ears</w>
eech</w>
else</w>
ence</w>
ends</w>
even</w>
ever</w>
exit</w>
eyes</w>
face</w>
fair</w>
fall</w>
fear</w>
find</w>
fore</w>
from</w>
full</w>
ghts</w>
give</w>
gone</w>
good</w>
hand</w>
hast</w>
hath</w>
have</w>
head</w>
hear</w>
help</w>
here</w>
hold</w>
hour</w>
iago</w>
ight</w>
ince</w>
ings</w>
inst</w>
into</w>
keep</w>
kill</w>
king</w>
know</w>
lack</w>
lady</w>
lain</w>
land</w>
last</w>
less</w>
lies</w>
life</w>
like</w>
ling</w>
lius</w>
live</w>
llus</w>
lock</w>
long</w>
look</w>
lord</w>
love</w>
made</w>
make</w>
many</w>
mark</w>
mber</w>
meet</w>
ment</w>
mind</w>
mine</w>
more</w>
most</w>
much</w>
must</w>
name</w>
ness</w>
news</w>
ning</w>
none</w>
once</w>
ough</w>
ould</w>
ound</w>
ours</w>
part</w>
play</w>
poor</w>
pray</w>
rest</w>
ried</w>
ring</w>
rome</w>
said</w>
same</w>
seen</w>
self</w>
sent</w>
show</w>
side</w>
sing</w>
sion</w>
some</w>
soul</w>
stay</w>
ster</w>
such</w>
sure</w>
tain</w>
take</w>
tell</w>
than</w>
that</w>
thee</w>
them</w>
then</w>
ther</w>
they</w>
this</w>
thou</w>
thus</w>
till</w>
time</w>
ting</w>
tion</w>
true</w>
tter</w>
ttle</w>
turn</w>
upon</w>
urse</w>
very</w>
ving</w>
ward</w>
well</w>
were</w>
what</w>
when</w>
wife</w>
will</w>
with</w>
word</w>
ying</w>
your</w>
about</w>
after</w>
again</w>
aside</w>
being</w>
blood</w>
bring</w>
cause</w>
cious</w>
clown</w>
comes</w>
could</w>
ction</w>
death</w>
earth</w>
enter</w>
every</w>
faith</w>
first</w>
forth</w>
friar</w>
ghter</w>
grace</w>
great</w>
hands</w>
heard</w>
heart</w>
hence</w>
house</w>
ither</w>
leave</w>
light</w>
madam</w>
makes</w>
marry</w>
might</w>
never</w>
night</w>
noble</w>
nurse</w>
onius</w>
other</w>
peace</w>
place</w>
power</w>
queen</w>
romeo</w>
rough</w>
scene</w>
shall</w>
sleep</w>
speak</w>
stand</w>
state</w>
still</w>
sweet</w>
sword</w>
their</w>
there</w>
these</w>
thine</w>
thing</w>
think</w>
those</w>
three</w>
times</w>
trude</w>
where</w>
which</w>
while</w>
whose</w>
woman</w>
words</w>
world</w>
would</w>
young</w>
yself</w>
answer</w>
antony</w>
banquo</w>
before</w>
better</w>
bottom</w>
brutus</w>
caesar</w>
cannot</w>
cassio</w>
emilia</w>
enough</w>
exeunt</w>
father</w>
follow</w>
friend</w>
gentle</w>
hamlet</w>
heaven</w>
helena</w>
hermia</w>
honest</w>
honour</w>
indeed</w>
juliet</w>
little</w>
master</w>
matter</w>
mother</w>
myself</w>
nature</w>
pompey</w>
portia</w>
prince</w>
reason</w>
second</w>
selves</w>
should</w>
spirit</w>
things</w>
though</w>
tongue</w>
tybalt</w>
venice</w>
within</w>
against</w>
another</w>
antonio</w>
capulet</w>
cassius</w>
citizen</w>
erefore</w>
fortune</w>
friends</w>
himself</w>
horatio</w>
laertes</w>
lepidus</w>
lorenzo</w>
macbeth</w>
macduff</w>
nothing</w>
ophelia</w>
othello</w>
servant</w>
shylock</w>
thought</w>
welcome</w>
without</w>
bassanio</w>
benvolio</w>
charmian</w>
claudius</w>
daughter</w>
domitius</w>
farewell</w>
gertrude</w>
gratiano</w>
laurence</w>
lysander</w>
mercutio</w>
octavius</w>
polonius</w>
roderigo</w>
cleopatra</w>
demetrius</w>
desdemona</w>
enobarbus</w>
launcelot</w>
messenger</w>
therefore</w>
rosencrantz</w>
